<blk>
<unk>
&
'
-
/
0
1
2
3
4
5
6
7
8
9
[laughter]
[noise]
[vocalized-noise]
a
ab
able
ably
ac
ace
aces
ach
ack
act
acy
ad
ade
ag
age
ah
ail
ain
ains
air
ak
al
all
ally
als
am
ame
ames
an
ance
ances
and
ang
ange
ano
ans
ant
ap
aper
apers
ar
ard
are
ared
arent
arge
arily
art
ary
as
ase
ash
asion
ass
ast
astic
at
ate
ated
ately
ater
ates
ath
ather
atic
ating
ation
ational
ations
ative
ator
ats
ature
au
aught
ause
ave
aw
ay
ays
az
b
ball
be
ber
ble
blic
bo
body
bt
by
bye
c
ce
ced
cent
cept
cer
ces
cess
ch
ci
cial
cially
cise
ck
cks
co
come
cri
ct
ction
cu
d
day
dd
der
dge
ding
dle
du
duc
e
ea
ead
eak
eal
ealth
ean
ear
earch
eas
ect
ed
edu
ee
eel
een
eep
ef
el
en
enc
ence
ency
ener
ens
ense
ent
ental
ention
ently
ents
enty
eo
ep
er
ere
ered
erest
erg
eric
ering
ers
ert
ertain
es
ess
est
ester
et
ety
ever
f
fe
fer
ff
fore
fort
ft
ful
fully
g
gan
ge
ger
ges
gest
get
gether
gg
gh
ght
gin
gr
gram
gress
h
ha
hood
hu
huh
hum
i
ia
ial
ian
ians
iar
ib
ibility
ible
ic
ical
ically
ice
iced
ices
ich
ick
ics
ict
icul
icular
icult
id
ide
ided
ident
ides
ie
ied
ield
ient
ier
ies
iew
if
ife
ific
iful
ig
igh
ight
ign
il
ild
ile
ility
ill
ilt
ily
im
in
ina
ince
ind
ine
ines
iness
ing
ings
ink
ins
int
io
iod
ion
ions
ior
ious
ip
ir
ird
ire
is
ise
ish
ision
iss
ist
it
itch
ite
ited
ith
ither
ities
iting
ition
itive
its
itt
itting
ity
iv
ive
ivid
iving
ix
iz
ize
ized
j
ject
k
ke
ked
ken
kes
ket
king
ks
l
land
law
ld
le
led
ler
les
less
lf
lic
ling
lish
ll
llow
lo
lt
ly
m
man
mas
mb
mber
mbers
me
med
ment
ments
mes
min
ming
mm
mo
more
most
mp
mpl
mploy
ms
n
na
nce
nd
nday
nder
nding
nds
ne
ned
nel
ner
ness
ng
ning
nment
no
nom
now
nt
ny
o
ob
od
ody
og
oh
ok
ol
om
ome
on
one
oney
ong
onna
ons
ont
ood
ool
or
ord
ore
ories
ork
orm
orn
ors
ort
orts
ory
os
ose
osed
ot
ou
ouble
ough
ought
ould
ound
ount
our
ous
out
ow
ower
oy
p
par
part
partment
pe
pect
per
ph
pit
pital
pl
ple
pons
pp
pped
pping
pri
ps
pt
q
qu
r
ra
ract
rant
rd
re
read
ready
rect
red
ree
ren
rent
res
ress
ri
rib
rible
ric
ried
ries
rist
ro
ron
room
ross
row
ru
rug
ry
s
sb
sband
se
sed
sel
self
selves
ses
set
sh
side
sing
so
son
ss
st
ste
ster
ston
sw
sy
t
te
teen
ten
ter
th
ther
thing
ti
ties
tim
time
times
ting
ton
ts
tt
ty
u
ual
ually
ub
uck
ud
ue
ues
uh
ul
ular
ull
ully
ult
um
un
unately
unch
unt
up
ur
urch
ure
ured
ures
uring
urn
us
ust
ut
ute
utes
ution
v
ve
ved
vel
velo
velop
ven
vent
ver
vers
very
ves
ving
vious
vision
vor
vy
w
ward
way
ways
ween
wh
where
wn
x
xic
xt
y
yc
ys
z
ze
zy
▁
▁-
▁a
▁ab
▁able
▁about
▁abs
▁absol
▁absolute
▁absolutely
▁ac
▁acc
▁account
▁across
▁act
▁actually
▁ad
▁add
▁adv
▁af
▁aff
▁afford
▁after
▁ag
▁again
▁against
▁age
▁ago
▁agree
▁ah
▁ahead
▁air
▁al
▁all
▁allow
▁almost
▁along
▁already
▁also
▁although
▁always
▁am
▁amaz
▁amazing
▁americ
▁american
▁amount
▁an
▁and
▁ano
▁another
▁answ
▁any
▁anybody
▁anymore
▁anything
▁anyway
▁anywhere
▁app
▁ar
▁are
▁area
▁areas
▁aren
▁around
▁art
▁as
▁ask
▁ass
▁at
▁att
▁aut
▁autom
▁av
▁aw
▁away
▁awful
▁b
▁ba
▁bab
▁baby
▁back
▁bad
▁bag
▁bal
▁ball
▁ban
▁bar
▁bas
▁base
▁basically
▁be
▁bea
▁beaut
▁beautiful
▁bec
▁because
▁become
▁bed
▁been
▁before
▁begin
▁beh
▁behind
▁being
▁bel
▁belie
▁believe
▁ben
▁benef
▁benefits
▁best
▁bet
▁better
▁between
▁big
▁bigger
▁biggest
▁bill
▁bit
▁bl
▁black
▁blo
▁bo
▁book
▁books
▁both
▁bother
▁bott
▁bought
▁boy
▁boys
▁br
▁bre
▁break
▁bri
▁bring
▁bro
▁brother
▁brought
▁bu
▁bud
▁budget
▁build
▁building
▁built
▁bunch
▁bus
▁business
▁but
▁buy
▁buying
▁by
▁bye
▁c
▁ca
▁cal
▁calif
▁californ
▁california
▁call
▁called
▁came
▁camp
▁camping
▁can
▁cans
▁capital
▁car
▁card
▁cards
▁care
▁carry
▁cars
▁cas
▁case
▁cases
▁cat
▁catch
▁cats
▁caught
▁cause
▁cent
▁center
▁certain
▁certainly
▁ch
▁chan
▁chance
▁chang
▁change
▁changed
▁changes
▁char
▁charge
▁che
▁chea
▁check
▁child
▁children
▁cho
▁choice
▁christ
▁christmas
▁church
▁city
▁civ
▁cl
▁class
▁clean
▁clo
▁close
▁cloth
▁co
▁col
▁cold
▁coll
▁colle
▁collect
▁college
▁color
▁com
▁come
▁comes
▁comfort
▁coming
▁comm
▁commun
▁community
▁comp
▁compan
▁companies
▁company
▁comple
▁complete
▁completely
▁comput
▁computer
▁con
▁concer
▁concerned
▁cond
▁cons
▁consid
▁consider
▁const
▁cont
▁contin
▁contro
▁control
▁coo
▁cook
▁cor
▁cost
▁costs
▁cou
▁could
▁couldn
▁count
▁countries
▁country
▁couple
▁cour
▁course
▁cover
▁cr
▁cra
▁crazy
▁cre
▁cred
▁credit
▁cri
▁crime
▁crimin
▁cur
▁current
▁cut
▁d
▁dad
▁dall
▁dallas
▁dan
▁daught
▁daughter
▁day
▁days
▁de
▁deal
▁death
▁dec
▁decide
▁decided
▁def
▁defin
▁definite
▁definitely
▁deg
▁degree
▁depe
▁depends
▁des
▁det
▁di
▁did
▁didn
▁diff
▁differe
▁difference
▁different
▁difficult
▁din
▁dinner
▁dis
▁dist
▁do
▁doct
▁doctor
▁does
▁doesn
▁dog
▁dogs
▁doing
▁doll
▁dollar
▁dollars
▁don
▁done
▁door
▁down
▁dr
▁dra
▁dress
▁dri
▁drive
▁driving
▁dro
▁drug
▁drugs
▁du
▁during
▁e
▁ea
▁each
▁ear
▁early
▁eas
▁easier
▁east
▁easy
▁eat
▁eco
▁econom
▁educ
▁education
▁eff
▁effect
▁eight
▁eighty
▁either
▁el
▁ele
▁elect
▁else
▁employ
▁en
▁end
▁ended
▁eng
▁engine
▁enj
▁enjoy
▁enjoyed
▁enough
▁ent
▁equ
▁es
▁espe
▁especially
▁ev
▁even
▁event
▁ever
▁every
▁everybody
▁everyone
▁everything
▁ex
▁exact
▁exactly
▁exam
▁example
▁exc
▁except
▁exer
▁exercise
▁exp
▁expect
▁expens
▁expensive
▁exper
▁experi
▁experience
▁ext
▁extra
▁f
▁fa
▁fac
▁fact
▁fair
▁fairly
▁fall
▁fam
▁famil
▁familiar
▁families
▁family
▁fan
▁far
▁fast
▁father
▁favor
▁favorite
▁fe
▁fed
▁feel
▁feeling
▁felt
▁few
▁field
▁fif
▁fifteen
▁fifty
▁fig
▁figure
▁fin
▁finally
▁find
▁fine
▁finish
▁fir
▁fire
▁first
▁fish
▁fishing
▁five
▁fix
▁fl
▁flo
▁fo
▁follow
▁food
▁foot
▁football
▁for
▁fore
▁form
▁fort
▁forth
▁forty
▁found
▁four
▁fr
▁fre
▁free
▁fri
▁frie
▁friend
▁friends
▁fro
▁from
▁front
▁fu
▁full
▁fun
▁funny
▁g
▁game
▁games
▁gar
▁gard
▁garden
▁gas
▁gave
▁gener
▁general
▁get
▁gets
▁getting
▁gir
▁girl
▁give
▁given
▁gl
▁glad
▁glass
▁go
▁god
▁goes
▁going
▁golf
▁gone
▁gonna
▁good
▁goodness
▁gosh
▁got
▁gotten
▁gover
▁government
▁gr
▁grad
▁gradu
▁grand
▁gre
▁great
▁green
▁grew
▁gro
▁grou
▁group
▁grow
▁growing
▁gu
▁guess
▁guil
▁guilty
▁gun
▁guns
▁guy
▁guys
▁h
▁ha
▁had
▁hadn
▁half
▁hand
▁happ
▁happen
▁happened
▁happens
▁happy
▁hard
▁has
▁hate
▁have
▁haven
▁having
▁he
▁hea
▁head
▁health
▁hear
▁heard
▁hel
▁help
▁her
▁here
▁hey
▁hi
▁high
▁him
▁his
▁hit
▁hm
▁ho
▁hob
▁hold
▁home
▁homes
▁hope
▁hor
▁hos
▁hot
▁hou
▁hour
▁hours
▁hous
▁house
▁how
▁hu
▁huh
▁hum
▁hund
▁hundred
▁hunt
▁hur
▁husband
▁i
▁id
▁idea
▁if
▁im
▁imag
▁imagine
▁imp
▁import
▁important
▁in
▁inc
▁income
▁ind
▁individ
▁individual
▁indust
▁inf
▁inform
▁information
▁ins
▁inside
▁inst
▁instead
▁instru
▁insur
▁insurance
▁int
▁inter
▁interest
▁interested
▁interesting
▁into
▁inv
▁invol
▁involved
▁is
▁isn
▁iss
▁issue
▁it
▁its
▁j
▁jo
▁job
▁jobs
▁ju
▁judge
▁jury
▁just
▁k
▁ke
▁keep
▁kept
▁kid
▁kids
▁kill
▁killed
▁kind
▁kinds
▁kn
▁kne
▁knew
▁know
▁knows
▁l
▁la
▁lake
▁land
▁large
▁last
▁late
▁lately
▁later
▁law
▁lawn
▁le
▁lea
▁lear
▁learn
▁learned
▁least
▁leave
▁left
▁leg
▁less
▁let
▁level
▁li
▁life
▁light
▁like
▁liked
▁likes
▁lim
▁line
▁list
▁listen
▁litt
▁little
▁live
▁lived
▁lives
▁living
▁lo
▁loc
▁local
▁long
▁longer
▁loo
▁look
▁looked
▁looking
▁looks
▁lose
▁lost
▁lot
▁lots
▁love
▁low
▁luck
▁m
▁ma
▁mach
▁made
▁mag
▁magaz
▁magazines
▁main
▁maj
▁major
▁make
▁makes
▁making
▁man
▁many
▁mar
▁market
▁married
▁mat
▁matter
▁may
▁maybe
▁me
▁mean
▁means
▁med
▁medical
▁meet
▁men
▁mess
▁met
▁mexic
▁mid
▁middle
▁might
▁mil
▁miles
▁milit
▁military
▁mill
▁min
▁mind
▁mine
▁minutes
▁mis
▁miss
▁mo
▁mod
▁mom
▁mon
▁money
▁month
▁months
▁mor
▁more
▁morning
▁most
▁mostly
▁mother
▁mount
▁mov
▁move
▁moved
▁movie
▁movies
▁mu
▁much
▁murd
▁mus
▁music
▁must
▁my
▁myself
▁n
▁name
▁national
▁ne
▁near
▁neat
▁necess
▁necessarily
▁need
▁needed
▁needs
▁neigh
▁neighb
▁neighbor
▁neighborhood
▁never
▁new
▁news
▁newsp
▁newspaper
▁next
▁nice
▁night
▁nin
▁nine
▁ninet
▁nineteen
▁ninety
▁no
▁nobody
▁nor
▁norm
▁north
▁not
▁nothing
▁noticed
▁now
▁nu
▁number
▁nur
▁nursing
▁o
▁ob
▁obvious
▁oc
▁occ
▁of
▁off
▁office
▁often
▁oh
▁oil
▁ok
▁okay
▁old
▁older
▁on
▁once
▁one
▁ones
▁only
▁op
▁open
▁opin
▁opp
▁or
▁order
▁organ
▁ori
▁origin
▁other
▁ought
▁our
▁ours
▁out
▁outside
▁over
▁own
▁p
▁pa
▁paid
▁pain
▁paint
▁paper
▁par
▁parent
▁parents
▁park
▁part
▁particular
▁particularly
▁party
▁pass
▁past
▁pat
▁pay
▁paying
▁pe
▁pea
▁pen
▁penal
▁peo
▁people
▁per
▁percent
▁perf
▁period
▁pers
▁person
▁personal
▁personally
▁pet
▁ph
▁phone
▁pic
▁pick
▁pie
▁pl
▁place
▁places
▁plan
▁plano
▁plant
▁plastic
▁play
▁played
▁playing
▁plus
▁po
▁point
▁pol
▁police
▁polit
▁poll
▁pop
▁pos
▁poss
▁power
▁pr
▁pre
▁pres
▁press
▁pret
▁pretty
▁pri
▁price
▁priv
▁private
▁pro
▁prob
▁probably
▁problem
▁problems
▁process
▁produ
▁product
▁prof
▁profess
▁program
▁programs
▁project
▁proper
▁prote
▁prov
▁pu
▁public
▁pull
▁pun
▁punish
▁punishment
▁pur
▁push
▁put
▁putting
▁qu
▁qual
▁quality
▁quest
▁question
▁quick
▁quite
▁r
▁ra
▁rad
▁radio
▁rain
▁ran
▁rate
▁rather
▁re
▁read
▁reading
▁ready
▁real
▁realize
▁really
▁reas
▁reason
▁rec
▁recently
▁record
▁recyc
▁recycle
▁recycling
▁red
▁ref
▁reg
▁regular
▁rel
▁reme
▁remember
▁rent
▁rep
▁requ
▁res
▁respons
▁rest
▁restau
▁restaurant
▁ret
▁reti
▁ri
▁rich
▁rid
▁right
▁ro
▁road
▁room
▁ru
▁run
▁running
▁s
▁sa
▁sad
▁said
▁sal
▁same
▁san
▁sat
▁save
▁saving
▁saw
▁say
▁saying
▁says
▁sc
▁scary
▁sch
▁school
▁schools
▁sci
▁scre
▁se
▁sea
▁season
▁sec
▁seco
▁second
▁see
▁seeing
▁seem
▁seemed
▁seems
▁seen
▁sell
▁send
▁sense
▁sent
▁ser
▁serious
▁serv
▁service
▁set
▁seven
▁sevent
▁seventy
▁sever
▁several
▁sh
▁she
▁sho
▁short
▁shot
▁should
▁shouldn
▁show
▁shows
▁si
▁side
▁sign
▁sim
▁since
▁sing
▁single
▁sister
▁sit
▁sitting
▁situ
▁situation
▁six
▁sixty
▁size
▁sk
▁sl
▁sle
▁sm
▁small
▁smo
▁snow
▁so
▁soci
▁social
▁society
▁sol
▁some
▁somebody
▁someone
▁something
▁sometimes
▁somewhere
▁son
▁soon
▁sor
▁sorry
▁sort
▁sou
▁sound
▁sounds
▁south
▁sp
▁space
▁spe
▁special
▁spend
▁spending
▁spent
▁sports
▁spr
▁spring
▁st
▁stand
▁start
▁started
▁starting
▁state
▁states
▁station
▁stay
▁stick
▁still
▁sto
▁stop
▁store
▁story
▁str
▁stra
▁strange
▁stre
▁street
▁strong
▁stu
▁stud
▁student
▁students
▁stuff
▁su
▁sub
▁subject
▁such
▁summ
▁summer
▁super
▁supp
▁support
▁suppose
▁supposed
▁sur
▁sure
▁surpri
▁sw
▁sy
▁syste
▁system
▁t
▁ta
▁take
▁taken
▁takes
▁taking
▁tal
▁talk
▁talked
▁talking
▁tax
▁taxes
▁te
▁tea
▁teach
▁teacher
▁teachers
▁team
▁tech
▁tele
▁television
▁tell
▁ten
▁tend
▁ter
▁terms
▁terrible
▁test
▁testing
▁tex
▁texas
▁th
▁tha
▁than
▁thank
▁that
▁the
▁their
▁them
▁themselves
▁then
▁there
▁these
▁they
▁thing
▁things
▁think
▁thinking
▁thir
▁third
▁thirty
▁this
▁those
▁though
▁thought
▁thousand
▁thr
▁three
▁through
▁throw
▁ti
▁time
▁times
▁to
▁today
▁together
▁told
▁tom
▁too
▁took
▁top
▁topic
▁tot
▁totally
▁tough
▁toward
▁town
▁tr
▁train
▁trans
▁trave
▁tre
▁trees
▁tri
▁tried
▁trouble
▁truck
▁true
▁try
▁trying
▁tur
▁turn
▁turned
▁tw
▁twelve
▁twenty
▁twice
▁two
▁ty
▁typ
▁type
▁u
▁uh
▁um
▁un
▁under
▁underst
▁understand
▁unfort
▁uni
▁united
▁univers
▁university
▁unless
▁unt
▁until
▁up
▁us
▁use
▁used
▁using
▁usually
▁ut
▁v
▁vac
▁vacation
▁val
▁var
▁ve
▁very
▁vi
▁view
▁vir
▁vis
▁vo
▁vol
▁vot
▁vote
▁w
▁wa
▁wait
▁wal
▁walk
▁wall
▁wan
▁wanna
▁want
▁wanted
▁wants
▁war
▁was
▁wash
▁wasn
▁wast
▁wat
▁watch
▁watched
▁watching
▁water
▁way
▁ways
▁we
▁wear
▁weather
▁wee
▁week
▁weeke
▁weekend
▁weeks
▁weight
▁well
▁went
▁were
▁weren
▁wh
▁what
▁whatever
▁whe
▁when
▁whenever
▁where
▁whether
▁which
▁while
▁white
▁who
▁whole
▁why
▁wife
▁will
▁win
▁wind
▁winter
▁wish
▁with
▁within
▁without
▁wo
▁wom
▁woman
▁women
▁won
▁wonder
▁wonderful
▁wood
▁wor
▁word
▁work
▁worked
▁working
▁works
▁world
▁worry
▁worse
▁worth
▁would
▁wouldn
▁wow
▁wr
▁wrong
▁y
▁yard
▁ye
▁yea
▁yeah
▁year
▁years
▁yep
▁yes
▁yet
▁york
▁you
▁young
▁younger
▁your
▁yourself
